/**
  ******************************************************************************
  * @file    network_data_params.c
  * @author  AST Embedded Analytics Research Platform
  * @date    2025-10-15T11:34:04+0530
  * @brief   AI Tool Automatic Code Generator for Embedded NN computing
  ******************************************************************************
  * Copyright (c) 2025 STMicroelectronics.
  * All rights reserved.
  *
  * This software is licensed under terms that can be found in the LICENSE file
  * in the root directory of this software component.
  * If no LICENSE file comes with this software, it is provided AS-IS.
  ******************************************************************************
  */

#include "network_data_params.h"


/**  Activations Section  ****************************************************/
ai_handle g_network_activations_table[1 + 2] = {
  AI_HANDLE_PTR(AI_MAGIC_MARKER),
  AI_HANDLE_PTR(NULL),
  AI_HANDLE_PTR(AI_MAGIC_MARKER),
};




/**  Weights Section  ********************************************************/
AI_ALIGNED(32)
const ai_u64 s_network_weights_array_u64[2612] = {
  0x0U, 0x0U, 0x0U, 0xee0a260544000000U,
  0xf6040714b2818212U, 0xfe1c0c05e710f90bU, 0x2409f23af90e08U, 0x1010e02909775001U,
  0xfffe13ec7f480611U, 0xcb1ff2d94f1dc632U, 0xf6145716152f0c11U, 0x1e7f400e2a17f5fbU,
  0x151601010204ecf1U, 0x240e6e4507ff0303U, 0x345824151e070772U, 0x5e43004c3b1d7b23U,
  0x142023f8077f352eU, 0xef2205a409079c10U, 0x8018cd50381d708U, 0xe8f4ffe3fffae4U,
  0x25a72e21c119ed05U, 0x81403da12605e907U, 0xe0edf170ee20646U, 0xfc0de5fd06f219d3U,
  0xfcfcf612e3f1cd8dU, 0xef00fafaed9a8100U, 0xfa19e6ff0ef4fb27U, 0x7d7a737f7a747f7bU,
  0x7a717c79737e7c72U, 0x717c79727c7a717cU, 0xbfe0f0bf5707a79U, 0x3ff3785ffc100c08U,
  0x10ebe70d0ced017fU, 0xade9e5fc01faddfbU, 0xc7fdf4fa135f24ecU, 0xffe6f10d7f51f199U,
  0xfffaf4172601ede3U, 0xf12e00509eced06U, 0xecceddf9ddcfdeafU, 0x7f7cbee408ded6faU,
  0xdd17eb43U, 0x0U, 0x0U, 0xce00000000000000U,
  0xfaeef8e691c3ee9fU, 0x1009187f3b0f723fU, 0x2feed0203edf90bU, 0xc9e34cd5f62bfc04U,
  0xd77fb1ec56eaf61fU, 0x4cd1f638dbee3ba5U, 0xeefa1acbecU, 0x0U,
  0x0U, 0x0U, 0xa23c0000000U, 0x246cfffde1e4U,
  0x7a7800063556U, 0x645900008f6cU, 0x6a16fffaae4aU, 0x7b3b0000077b1U,
  0xff65c0000000U, 0xc00000000000cfabU, 0xb450bc2782af1294U, 0xb73605811df8fda6U,
  0x817f817f7f811833U, 0xe77f069733817fabU, 0x4ea041b8fe5ce718U, 0xe39b013df104e5a1U,
  0xee30ed50dea7f81U, 0xf2e308cf940300e4U, 0xe507e5f9f2c7d6b2U, 0x17018198f515a794U,
  0x22e620030242000eU, 0x2bfd0beb02fe0681U, 0x34d825fa0246b78dU, 0x17e50228040000b4U,
  0x15dd25e5fe21fb17U, 0x91e400c65300f383U, 0x16080c040013f815U, 0x8111036b81ff048dU,
  0x8b35ffffff5fU, 0x2bea00001950U, 0x111bc000025feU, 0x17ef7000040a5U,
  0x1922ffffd1ecU, 0x3780000075deU, 0x6bc9fffffe43U, 0xffffff950000311aU,
  0xfd01fd7ffbfeef00U, 0x57500ffa689ffU, 0x314094959fce700U, 0xf41e00d27ffdffU,
  0x30c04c7f4fefb00U, 0xf97f0001ef0601U, 0xe3f155481ebfb00U, 0x1500002c013dffU,
  0xb7f1fd11de92900U, 0xdfb00f912c801U, 0x7f3e8eb00f7f000U, 0x7ffb00d8fc0900U,
  0xfeeef12d05fc1000U, 0x3c7f0048728c02U, 0x610fd077ff30f00U, 0x2ff7004ccb43ffU,
  0xffff5d37fffffc83U, 0xffffd130ffffdee7U, 0xfffffae3ffff81bcU, 0xffff9867ffff97c6U,
  0x17d2e215d5318108U, 0x7facff0aa8ec473dU, 0x54307f2e73d40017U, 0x150102957fa6494dU,
  0x81d82c090c3da3cfU, 0x7f32cb0c39d1080eU, 0xde390f7fce9deb38U, 0xc352f725ec09047fU,
  0x810816077b17a613U, 0x4c8a04fe03128161U, 0x3681f700069ee091U, 0xf929d98197fadde8U,
  0x7f41dfaf48d4f809U, 0x0U, 0x2c2c7f250bfee400U, 0x52c62b3681100e1fU,
  0x0U, 0x271df5e9167f170bU, 0xfe880dfa251f8155U, 0x52a0c6a6521ef081U,
  0x41f681ed64d92229U, 0xc46f4f80a7f0f3aU, 0x6a30606fe81ebbeU, 0xa97fe50fe5ef7d9cU,
  0x7f63c8f651d2cc05U, 0xcab5637f1c1f290aU, 0xfaab0904fe81e0aeU, 0x33417fe5f7d4e416U,
  0x45417f0d1ef0f903U, 0xf545e7e8f87f1e5aU, 0xd077e610dbdc7fa2U, 0x717fa73301ea9bd9U,
  0x7f5066ef7ecd07fdU, 0x7fe4e81382fc3e00U, 0x7f02ea2790fb56eeU, 0xba680122d1f2177fU,
  0x53ad15d84efded81U, 0x43217f201df6e102U, 0x29e9f77f63051f0eU, 0x7fdd0616911e1906U,
  0xef5af3f7067f1c5cU, 0x72587f3961dcdffbU, 0x36e10dd4077f09b6U, 0x810cf7f25e0ec2fcU,
  0x8febcd6281c4f529U, 0xcd4afb11ca047fa3U, 0x309829eb251ee581U, 0x37feb1c0557fd69U,
  0x1a00000d93U, 0x15d300002412U, 0x1f7000001b5bU, 0xffffffe2000027daU,
  0xfffffedaffffffacU, 0x1b1000009a9U, 0xfafb13800000387fU, 0x499500000cacU,
  0xffffff90fbf2be28U, 0x3dfffffffe4cU, 0xfffffff400000bceU, 0x1affffffffbU,
  0xfffffce100000de6U, 0x30c0000002fU, 0x6ff00000de0U, 0x3eb300000a89U,
  0x17800000f50U, 0xfffff5400000011aU, 0x12fa0000019bU, 0x3253ffffff6aU,
  0x364600000932U, 0xffffffa0fffffeb6U, 0x86000039a8U, 0x10e400003181U,
  0xbeb1d907eef6ead3U, 0xd873b9234306cce7U, 0xb291b9fff927aa8fU, 0x1a5f0f47e7c081dfU,
  0x5181300f35f9a681U, 0x6ba8dffd936bf4b4U, 0xb0818139e2e20b4bU, 0x3e00ae276f8cb03cU,
  0xb881900b073e8cccU, 0x37c714cdd68882fcU, 0x7fa4490b513f811eU, 0x5e81e901817f0781U,
  0xf0c592c0f9042ae0U, 0xf59bb9082781f95aU, 0xe6dbb3f20b1ce781U, 0xbe811f8eec5e5f6U,
  0x11fb250d1e46ab6fU, 0xdc906eeac0702b2U, 0x976537f5d2d281aaU, 0xa11bc05a70ed92e9U,
  0x819ca62ab35ca087U, 0x537fc37fdcb2832bU, 0x5b92b3da58f3abd5U, 0x76528ca692683b2aU,
  0x81602a7f8181af7fU, 0x7ffaf27f7f948166U, 0x8a8b817f817f81c4U, 0x7fba818d81819b7fU,
  0x5a9c81b87f7f911dU, 0x7f7d8190877f7f3dU, 0xda1ee98aaac21cccU, 0xd4e7ba3725b4ea7fU,
  0xe8daac38b836e2dbU, 0x13dda80fc3d1ff30U, 0xf100c2da18769e20U, 0x2340dbc6b2093423U,
  0xddfc22fedfdf95c2U, 0xc181814d3beec4dcU, 0xc5f4df334941efd5U, 0x3e4d1c49c4f5c31fU,
  0x1eed249ff5dbe86dU, 0x2202b461c8102609U, 0xd2071351aeaab756U, 0x5a11e65339dfb832U,
  0xc8edc84f7450e2e8U, 0x70d327cf97ecbc59U, 0xfff033810544d0edU, 0x2bf39e7fba10210aU,
  0xf316ecb1ded71be4U, 0xe370d52022f1fb3aU, 0xfdfee348391efda3U, 0x27ed1bf3bffa0327U,
  0xd81a16e90242d5a7U, 0x12fbdc3ef2fd2306U, 0xcaba00011453U, 0xa69e0000f81dU,
  0x357c00000030U, 0x7c1f0000081eU, 0x689e00006268U, 0x17c9000079acU,
  0xffffff81ffff4871U, 0x18400009f84U, 0x81b2ffffff34U, 0x87800000555U,
  0x944ffffccdfU, 0x881e0000bf8cU, 0x957effffb5e1U, 0x64d60000a3fdU,
  0x4640fffff3baU, 0xffff38b3ffffe1faU, 0x1dbe500002f1fU, 0x58600006d1aU,
  0xfffffeef0000edeaU, 0xffff97b800022472U, 0xffff991e000030c6U, 0x1a576000004c1U,
  0x109dffffffa0aU, 0xffffaa030000077fU, 0x50c1807a20802f6U, 0x8060062fb010205U,
  0x3fb014c00f9f600U, 0x8108090900072c1fU, 0x1ff102ec04030509U, 0x109ff0d0a03e70bU,
  0x50d41631f7f8f9dcU, 0x2b150009dfe10916U, 0x187f17fcca0e2d00U, 0xef14f809003703e3U,
  0x210c800edeffb10U, 0x9dd707ddf4a9f7f7U, 0x1d14ee2d0f0314c9U, 0x310300fdf6033af0U,
  0xfa070ffd13811500U, 0xfc111a03112805d9U, 0x5080514f4f5fd08U, 0xb17d01401d6f420U,
  0xfd1a030b0409faU, 0xfee0001600ff053aU, 0xef07fefefefc0500U, 0xfd02fcf9fef9fef8U,
  0x8104fe07fbd51edcU, 0x5f9f9fed4010700U, 0xfc07eaff2059fd01U, 0x1ee00adf8f9f802U,
  0xfafef84303060200U, 0x5ffcfffd3efa22eeU, 0xeffdf20c02fefd0bU, 0xfbfefb0a0381f7U,
  0x101930fff4032dfbU, 0xfe81001c370a1de9U, 0x27f20ff912dc1100U, 0xf11715f5f821fbf1U,
  0xfd11104fad81f35U, 0x161638101ff2f815U, 0xaeaca2f0203c8ecU, 0x2a8100fc4ef8ea1aU,
  0xe21b00fdec2dee00U, 0xf9f5f531fc01031aU, 0xebbcf6f7ff1fe15fU, 0xe5f0b4eae802f0f0U,
  0x194b197f0bf1e184U, 0x6e5c00eade190214U, 0x2ae1fff540040a00U, 0x33c3d410f2b0313U,
  0x2b181b09e6edeafcU, 0x51430842f3ea0c50U, 0xffff9d2bffffe471U, 0x531800005082U,
  0x36f000009b4U, 0x1d1400008688U, 0x2c8317ffdf0f457U, 0x131f03047f100cf4U,
  0x457ac062ceb8125U, 0xb14cfe715fcec7fU, 0xb210d106f67fd7f8U, 0x220b0a7f0800e62cU,
  0xbdca3e257ff960e9U, 0x410ec0100027ffeU, 0xdbe1fbd615001c7fU, 0x3f00623040e1c81U,
  0xfbec2f3b7f0bf09aU, 0xdaef0220c5191b81U, 0xe90df3d60a0d1e7fU, 0x67a17df1008151ebU,
  0xee120a0d7fedeeceU, 0xd202effe01077f00U, 0xef5382cffaf481e0U, 0xf0b05000f9097f1aU,
  0x31e72e0e0a8134f1U, 0x2c14e98101fe15a5U, 0x32ff2560bf7ff81U, 0x8ff0f810612f1c6U,
  0x4221fd54f6facd81U, 0x898162f6edf9f6f7U, 0x44e93205078125faU, 0xdcf1f3cb7f10e760U,
  0xe07f7bedff00f206U, 0xf42b1d7f04f6f347U, 0x7fde38e8fbcd7cfcU, 0xc18159faf602fcfbU,
  0xf4fe07f08102f703U, 0xfc1b0881fcf903c8U, 0x81b0280a91031c13U, 0xfe2a20810a0907c2U,
  0xf2f9fc2c0e004c81U, 0xf7181f0dee970feU, 0xdd8159faec0740edU, 0xdd70810a0ff4a52bU,
  0x4fd01007250281f3U, 0x9ad2f6f805eb8105U, 0xad815edffd111178U, 0x6cdc3805fe0481ffU,
  0xf7f406ca81f4ef2eU, 0xc8f0344f8114ed96U, 0x7f71050f07e006U, 0xdd06193d05e3d881U,
  0x60e22fa0f7f550cU, 0xf11214107ffefafaU, 0x21ac00017cbeU, 0x219f00001fd5U,
  0x308c00000751U, 0xfffffef8fffff70dU, 0xa1d000002e3U, 0x1c3000010e1U,
  0xfffffbb5000005bcU, 0xfffff73200000343U, 0x2f0700001442U, 0x7b8cfffffee9U,
  0xda000000ffcU, 0xfffffd9d00001e17U, 0x117300000f63U, 0x32c4000070ceU,
  0xfffff57bffffffc8U, 0xbc000000034U, 0x3478fffff778U, 0x22cb00000d2aU,
  0x15cf00001f99U, 0x81d000064e3U, 0xa99fffffc21U, 0x116500000448U,
  0x8f7000015deU, 0xbfbfffff9a4U, 0x1bfe4c036e13fd05U, 0x8d2f8f9080a0910U,
  0xf67feaf98fe908fdU, 0x631004fa0afa08ffU, 0xfe2201e72a1e14U, 0xf6fa0413f8f8ba11U,
  0x909521b810e0b7fU, 0x705e8cf2b067f7eU, 0xe931a9cc5c3c87fU, 0x830b1417ade04814U,
  0x6ef8d2d70b7fc605U, 0x1681f9e004e3a1b1U, 0x11043dfe0e06fddfU, 0x30ffef21ff2081cU,
  0xfaeff6e14afa1c98U, 0xea0504ee1ffdc3feU, 0xf2292fffee12e907U, 0xfaff04d80df02632U,
  0xf021e20e9d00077dU, 0xe011fffb35f50808U, 0xef84b70bafc5cf00U, 0x950d21f881f16406U,
  0x2bd739fe7ffecd10U, 0xfbf4f3d3a82781c2U, 0x818181817481811aU, 0x81237f7f817fa081U,
  0x7f707f7f977f7facU, 0x7f5f81811d81817fU, 0x7f7f817fd7e07f81U, 0x6a66867f7f7fb37fU,
  0x122bc206f3300535U, 0x47fd701f8970ee8U, 0xe00cd40e54b9bf3fU, 0x101281346da0503U,
  0xf8453ffb4209d520U, 0x5f6f01ce1aa0aafU, 0x15db2007f01afac9U, 0x12d8f906210ee709U,
  0xf5f0e0076bf31606U, 0xe43103f7350017fdU, 0xec0820ffdadfd6edU, 0x12f611dbda28fd09U,
  0x227ae911174b7e44U, 0x18a6fefd1a2dfd13U, 0x140c30db7cdcc8c7U, 0x187f004d20d8c320U,
  0x78f1f0e6dd06e855U, 0x8108df162dd8f7e5U, 0x7c3f605fe07fcd5U, 0xbf8f615d8d7f6efU,
  0xf805f71881f61822U, 0xa0608f1caf60cfaU, 0xc71825fbeadb58ecU, 0xfcfc7fd708d90b04U,
  0xfffffe00ffff33deU, 0xfffffc0600001eb0U, 0xfffffd7900001627U, 0x62ab00000783U,
  0x7d5a000006f8U, 0x49fafffff6a7U, 0xfffff96cffffe50dU, 0x209300006f4dU,
  0x431d000001d9U, 0x2afa000079cbU, 0xfffffe8300000048U, 0x3980fffffd26U,
  0x6f96ffffdf2cU, 0x82990000b410U, 0x41400000ebaU, 0x32afffff6f1U,
  0x3cca00000387U, 0x3c9cffffe657U, 0x3f86ffffd66fU, 0x26edfffffaa96U,
  0x3dbb00006d5bU, 0xfffff89200002d20U, 0xc290000367fU, 0xfffffee7000005b9U,
  0x1610e20401dbeed6U, 0xe5500f6f78d87f99U, 0xdae802e2f207e6f4U, 0xd6120aee38259816U,
  0xe10800fafe6ab40aU, 0xeceb18e1ee280966U, 0xab07e6f9ff7f21f6U, 0x83f900e8101a1116U,
  0xec1318dcf209b7feU, 0xf606fa0a0211f9e7U, 0xcb3edfeb0a1d0df1U, 0xf91b0aec19f9270bU,
  0xdeff161bd60acd02U, 0xfc073bee19fa0301U, 0xf8d617eed7db7ed2U, 0xcd03f4e0f807fe7fU,
  0x8f5f8f30d0aeffaU, 0xdce31d01f9f0f305U, 0xfef9fa040200b407U, 0x62ffb0e1213fbeeU,
  0x4ee13f61b03eef8U, 0xfd7f03f40bfd3206U, 0x2fbf2ed08030709U, 0x1a0102051ffe05f6U,
  0xeffd6f90208fc8cU, 0x6ed03cee10fc941U, 0xfa04f40b24130befU, 0xe9f3fe0b690b3af2U,
  0xb0206f011cd810dU, 0x100f05c61ddbf6d5U, 0x22f80bd6ff0d0df5U, 0x16fdddfd0113f71eU,
  0x2cfed8290a14b30aU, 0xf90ee5d7dabf0610U, 0x13d40147cbfbc403U, 0xf7ddf37f02fddc19U,
  0xe9f9df22f7f1eaebU, 0xca071df5f71df602U, 0xb50c40d4f40f150bU, 0x8f1271bb1cef3f4U,
  0xc704dfbd40d7c10bU, 0x1233e57f210bff0eU, 0x3c0013ed1d9f2612U, 0xfcf5e612d846fcf0U,
  0xbc102c42d02781f2U, 0x6f423f10419ea1eU, 0xc3d9bbf3f6072808U, 0x1fdefe44e2cdcfaU,
  0x5969ffff638fU, 0xffffc435ffffd7f7U, 0x29b000044bcU, 0xae04000056afU,
  0xde1e33d84d030281U, 0x4f7fcb0d1c334b2aU, 0xfafff581eb070ed0U, 0xed15188181f80368U,
  0x1228e31df6fa2b81U, 0x61090e810019df90U, 0x240bdd06fc2181faU, 0x1e1e77f5f02feb9U,
  0xe6d4edf98101fa3bU, 0x4fcc581bf8f381fdU, 0xe5374381131502bdU, 0x81d7dcc60c2a107bU,
  0x357fba0ef22e1001U, 0xcf667e7fef04e53bU, 0x5cc149a1a020e7fU, 0x281801fa021581edU,
  0x716fc810e07edd6U, 0xbe5d81f3fe9753e2U, 0x771714b508d6dd7fU, 0x81c091c04f5c17fU,
  0xcf1120067fe51d7dU, 0xaf8141e809bf2b10U, 0xe0c90eddf6272581U, 0xeb46378110fccaddU,
  0xf100fca0fb02087fU, 0xd8352e7fdffff61bU, 0xd84a8103e805b105U, 0xf521c7fdf11781f0U,
  0x617fdbe31b01489dU, 0x81a022fe050930f5U, 0xd5e5f8d20113067fU, 0x537fb22ef81eb704U,
  0x2886ae81f70a22a6U, 0x1dd3b78112f812ddU, 0x43ba5feaf93481fdU, 0xca2fc402f381d0e9U,
  0xd9e804ef033c7f08U, 0x97f7de3df4152581U, 0x67291333f8cbec81U, 0x547f9b10fb29ee05U,
  0xde7f7c87cee4eed4U, 0x4087818aaffd3783U, 0xb2924d0a058d81c4U, 0xf840427881e90fb8U,
  0x21e7e915aa0fe97fU, 0xd47ce00fcff81f3U, 0x1e6d87feef5005aU, 0xe10115f461fe007fU,
  0x37100000304U, 0x2c800000914U, 0x4368000023fcU, 0xffffffa000000b82U,
  0xfffffd63fffffc8cU, 0x3bd00000466U, 0x4a300000c8dU, 0xd300000651cU,
  0xfffffae0000008e7U, 0xf85ffffffdfU, 0x2ae9fffff80fU, 0x255500002d12U,
  0x19a00001741U, 0x1412000010ddU, 0xfffffd8700002796U, 0x135300002329U,
  0xffffff3a000002ccU, 0x12aa000014edU, 0x1e4fffff828U, 0x1560fffffdddU,
  0xfffffc840000059bU, 0x1b4fffffb98U, 0xe8c000004b3U, 0x407000002c6U,
  0xc06cdd344864a543U, 0xa4b7d33632aca53dU, 0x35adb3414e325164U, 0x8fc13cbbbec3d5e1U,
  0xebca36bf3f4429f2U, 0xde480c9d3f3cb735U, 0xabc4bbb0587fa051U, 0x5da091514ac09562U,
  0x4a3489537f5462daU, 0x81e14f37adbcb0cfU, 0xf2aa52ae554f4eacU, 0x995b81b55a54a64dU,
  0xd7cdd7142446d221U, 0xfec6aa202408e327U, 0x1b1dc720462424c8U, 0xa8572021e6d2d1e2U,
  0xf3d728e1252329b0U, 0xb528f9fb2c22db2aU, 0xa77fb03662d5935eU, 0x81f4905554b29059U,
  0x49816a50da4b6c7fU, 0xf9bb57819fa4b148U, 0x59af52ab626847a9U, 0xa65969a65b5a9d55U,
  0x81a081817fc0817fU, 0x63eb817f7f81817fU, 0x7f457f7fcf7f7fbeU, 0x11e27f358181817fU,
  0x7f817f817f7f7f81U, 0x817ff4817f7f817fU, 0xbfccc5273fe3b640U, 0xcefce333bc4d83bU,
  0x43334038e23a34c1U, 0xe7f3924d3c2c041U, 0x36c43dcd343246c1U, 0xc93abec23f38c73eU,
  0xd73fca1a2fd1ce30U, 0xb053b53927f8b428U, 0x1eb3f51ae122364cU, 0x5bda20b7d0cdd1e8U,
  0xa9d424e62c2d26b5U, 0xb6270fe7302ccb32U, 0xbcb4c1c74dceb74bU, 0x217fd34a3ab9ae32U,
  0x4527ee35d43d40d1U, 0x76e93e20c2b2bdcdU, 0x97bc3cce3b373fc7U, 0xca3c32a83f3fbc48U,
  0xdbeeee1e2be9da2cU, 0x1a4305211ac9e40cU, 0x2b27001ddc1d19ddU, 0x423d2324e7cfe5e6U,
  0xc6e220e8171021f9U, 0xfa1e09c51d1add1eU, 0xa76600000d29U, 0xa732fffffc89U,
  0x205ae000011d5U, 0xbd28fffff8edU, 0x8b6c00001221U, 0x116200006c86U,
  0x794cfffffbdbU, 0xfffff133fffffec9U, 0xfffffbacfffffd22U, 0xfffff70f0000065aU,
  0xfffffb13fffffdd8U, 0xffffb2cefffffe8cU, 0xb659ffffec33U, 0x1ae5f0001efb5U,
  0x1dc100000f20U, 0x30fffff462U, 0x5800000629bU, 0x156c0000c440U,
  0xffffffd50001076fU, 0x6830000d843U, 0xed1000000150U, 0x915fffffe92U,
  0xfffffe3d0000ba2fU, 0xcdf200001343U, 0x7009031103ecfcf3U, 0x4ea0d12fe1d0dccU,
  0x7f0ffa4af8fdf6fdU, 0xea18f71df50559ecU, 0xf60e3106cc1228e7U, 0xca811f282a1be58dU,
  0x3a0207de0c0ff5e2U, 0x1fae7d302e1cbU, 0xf5da05fa11ef6cefU, 0x15d8b0e51717d618U,
  0x503d9f6fe2303e6U, 0xfa17fe0c0d7fd9f5U, 0xea08c0fcd9f4fcedU, 0x7ef0b1218110bfeU,
  0x8102f803f3edeef8U, 0xfdfce80304f44cf8U, 0x1180f17fc0b2cfdU, 0xd0ff7fefaee07d4U,
  0xfc02fffee30919fdU, 0x3f90a8125fef9ebU, 0x110406e3fcf20704U, 0x150813fc1200f9faU,
  0xf241bf912110301U, 0xd01fc0ae414020eU, 0xf51820110800e419U, 0x11fd13fdf3fe04deU,
  0x450d0afc05b6f414U, 0x20cb8062d07f0fdU, 0x1805180e811edf17U, 0xfb08f0f9e60818f1U,
  0x190dfefc38f3f618U, 0xfeff2c06092e0006U, 0xe3ff020c0f1a15e4U, 0xf7fdeeffef08d3fcU,
  0xa12f0f418ff813dU, 0xf6a8f5fdfa0b3ba7U, 0xf507fbec050df91aU, 0x9030fec04fe08f6U,
  0xdc0e04f9047fe901U, 0xfffdfdf1f3200602U, 0x1749caffd422f604U, 0xf20206fb07f4f803U,
  0x38fc52f023f7edd1U, 0x5ecf9537ff41900U, 0x48e50be1ecf5e9fbU, 0xe8f5f2fde4d2e512U,
  0x763c2fb03e0fffbU, 0x3f5f00fc0b51c1fU, 0x1e0709f1020ad1c6U, 0x90e15342d0eb5f9U,
  0xe6f31bc300cf40eaU, 0x9f673f92c0d0cfdU, 0x291e3e8481e806f9U, 0x1c181d11e46cf50bU,
  0xfdf4d80c17f705e9U, 0x7140fc93805da33U, 0xeff4093febde1efcU, 0x4090f0de73a170cU,
  0xa9a81f3914b11f8U, 0xcfe0fc0508361cdaU, 0xf910562581e4efe7U, 0x13e1cc33062426fdU,
  0x3b22ec1ae82ed022U, 0xc5331d31d90594c2U, 0xd70ece12fe17b7e5U, 0xe11e030908f1b4e7U,
  0xe4a1be213c0f410cU, 0xac013df700f438faU, 0x11181d1eb023307U, 0xa803d539e525dd07U,
  0x88fe15699de5f02dU, 0x2221d006b16739fdU, 0x650c15030df5fc7fU, 0xf90504eccaf30eU,
  0x17030e0e07ff0702U, 0xf4fa09f602fc0cf4U, 0x3e9edf30ef5c600U, 0xf852f1cd8504b0f8U,
  0x5f40604fd020bU, 0xfd030cfd17020502U, 0xfd08f109030b0203U, 0xff07fe107f130100U,
  0xf302fc0313d8ff05U, 0xf1f500fe0602fdf1U, 0x991c2534bf2bed32U, 0x53df9c37e06d4d2U,
  0xe645061731cc2136U, 0x3036e12196e6290dU, 0xf9562bd2d3813dffU, 0xdf1911f8013b10c9U,
  0xcc441c4fd299c2feU, 0x30a00c59dce314f0U, 0xf22bf48eb14d3640U, 0xc4312f2e33231fa4U,
  0xdcee93eb7f5c3524U, 0x49efe5fdd27d4662U, 0x1574ffff7297U, 0xffffe5930000088fU,
  0xffffe182ffffeb9dU, 0xffff5b5effffd7beU, 0x699b000024e0U, 0xffffe83900008424U,
  0xffffb44bffffef87U, 0xffff67d900009888U, 0xe7250927656dec12U, 0xaee44340c0c31c7fU,
  0x18f8ff1cfa1032e4U, 0x887ffbd042f13a19U, 0x52fe39dc1208df09U, 0xae3a81ff3b1ad0c6U,
  0xe3cdf19616106d4dU, 0xedd83bd4cc7fed05U, 0x66f24bf8102c09e7U, 0x1e1e81061a05bad9U,
  0xce38fee19f7d070U, 0x2611fc08f48116f1U, 0x8e3d9dd3cf4cf81U, 0x41fa38dcd3eb8d97U,
  0x2c0481214ba022d0U, 0xcd80bf8e622f311U, 0xd9d23703f6f8cb28U, 0x6fb0481e8ab2bf1U,
  0xc210f9107f1dd725U, 0x28d13e18e01c8d62U, 0x26f82b7fea1da98cU, 0xbcaceff17f6b35bU,
  0x2bf5131f1c81f41eU, 0x12c80d0bf4e7e1fdU, 0xadaaba0f1d39c664U, 0x3a22e191f181eb34U,
  0x9ec2e43db2e4cf18U, 0x210bf11dffff81fbU, 0xd1318145e2bc1ed4U, 0xe01491594f4171fU,
  0xe1c8de2619371616U, 0x33e9b581ffc2b3fcU, 0x51135b14f72325b2U, 0xe10b2922f07f0f10U,
  0x491b1dd2ccdae8fdU, 0x94478f403f77fedU, 0xb33dfe0a18ec5202U, 0x8127c8fe43cd6e1eU,
  0xbfe230f032ef306U, 0x14fd0d81fde70814U, 0x8f102ff085fea85cU, 0xf7450817be81f4d4U,
  0xed213d05217fe037U, 0x5013fee04e217ffU, 0x7f28220a0a263327U, 0xdfa0c066b07272cU,
  0x25058101f9a81af7U, 0x31ef04e3eaf0f3f5U, 0xefe4f924ba06e50cU, 0x287f34e0433f1e08U,
  0x360a1ae7d88190U, 0x3e332f16e5b8fdb2U, 0x4ae3edf0152b2018U, 0xd01381fef2dbb79fU,
  0x25fef1301be32aabU, 0xdeeffbe3007fe62eU, 0x4f0bf6021b18efe9U, 0x33fff881f8ea0f15U,
  0xe214f42ad9232af2U, 0x16b71f0f08df2081U, 0xdf8c01eed81f00aU, 0xa15dee2e0e60304U,
  0x34e6052e0dacc77fU, 0x33acf200eab4e7edU, 0x91b39fc12172bbfU, 0xd8faf1f6cc7f0c00U,
  0xd00734cced7ff6f5U, 0x110f06042bf51af4U, 0xcee80efb81eefbdcU, 0x113500faa6fcf6e5U,
  0xf017f9302419ebfdU, 0xddd67ff6080c2586U, 0x500d2206ffd05a86U, 0xd6192ef9f87f04ffU,
  0xd905dcd0ea7ff7e8U, 0xf148e7f221f80912U, 0xdd2f1252deef10aU, 0x8057fe430ff05U,
  0x7f4d90a7dddacac4U, 0x57ff45cfa12194c7U, 0x1bf97f21f40cf24bU, 0xdfdd1e6c181aec18U,
  0xccee052a81def8e3U, 0x2bf000f5de0bd108U, 0xfa9fe5a265031912U, 0xfacc7fd4984092a3U,
  0xbd21382275cf7f0cU, 0x1928ecf20ff94fd8U, 0x36e13d271481f6eaU, 0x12bfc30ff623d7ddU,
  0x93513ee81d02906U, 0xf634ce0807ec2fe7U, 0x54d82930b6433a28U, 0xd3f7f241bc7f736U,
  0x38bf04d4d103fb12U, 0x153381111715d3eeU, 0x5fdf2078116f915U, 0x29061a0aff0df512U,
  0x2d1224527f17f70fU, 0xfb6416f63d321bc3U, 0xd9fd7f07e03919e0U, 0xc2e4f0511067001cU,
  0x16d80b0d250c3323U, 0xcd0f231b7f040a45U, 0xc803e015fe7f3feaU, 0xdd914cf11600fae0U,
  0xe61f0fd981edf8e6U, 0x282ce2faf2201cedU, 0xfeec07ffd2c9f20aU, 0x1f117ffce7e90348U,
  0x81daea15fafbe1e0U, 0xe6e4adeaf40ac2feU, 0x7fe9cee63d0f2516U, 0x27d8e26eb904ed0fU,
  0xecf3cb9ddd6efe7fU, 0xf408bf1bd79a18f0U, 0x36e18d813b195856U, 0xb7b6ea8c144ed7b1U,
  0xb0f04f6fdfef47fU, 0xff5fb02eb8f0ef3U, 0x12fa0b1407dc3a81U, 0xe822e7f0fb4d1ef4U,
  0xead9d62c377e3b98U, 0xb296d74a407f997fU, 0x5ef56c2b1781e4e4U, 0xf4adfbb7f013bcf5U,
  0xea2598a0ac7f01adU, 0x1463d016ea1f1013U, 0x945b003c37f02e1eU, 0x24ed8102e0e570ffU,
  0x8104035006140cf1U, 0xfd27d6dad8f2a2e3U, 0xec281ae2fbdc1881U, 0x692506514ac8e9b4U,
  0x3acf0bf97f3bbb11U, 0x392ca0b07ff0e4eU, 0x1cebd07fea032eU, 0xd6fbaa0df31f2cc9U,
  0x812af240581c5657U, 0xf92bdce748323cedU, 0x20150d7fbb0cd821U, 0x562477fbd21ae848U,
  0x58dd812957fe390eU, 0x25d3b60bfa13971aU, 0x6da12032007c881U, 0x641dfc2c23a2e4d2U,
  0xe3f20b1a2d14f709U, 0xe4c05e21fde0347fU, 0xfc1900e2ed16f247U, 0xc1802ac0e8112e6U,
  0xec0200df7fdef30cU, 0xe50bcd0bebee36abU, 0x81f013262804e7f3U, 0xd43ae2d828058414U,
  0xf9dcf8d61801e97fU, 0x3af10f473db5ee2bU, 0x4acaf511f823e906U, 0xf3377f3ce7c4e043U,
  0xc1c64c37123c1cecU, 0xc7e4057ff564bd00U, 0xf13606166181ad85U, 0x62acb83a2ead02b1U,
  0xd3c12e7f14b1eb60U, 0x2f9f04e1bad896f7U, 0xeaa9eb8643f7607fU, 0xc63160d4c05e14d0U,
  0x1ef5f00de60e2e7fU, 0xaad9e6cfe15d132aU, 0x811b1043e2a9c440U, 0xd9cee704f719fde3U,
  0x67540cfabbe60edfU, 0xfa624903dc117febU, 0xb02d6eaf0f8e47fU, 0x31f92c3ddb9af806U,
  0x50d750cad2015ae0U, 0x17fb811d04f4a9fcU, 0xa1ef0236ff8104f2U, 0xd71616d7c8d608f6U,
  0x7faf2a5a8b2bde35U, 0x1f046ee3242fab65U, 0x9971f3391acc2c05U, 0xfcd5f2f33ae47f29U,
  0xe8e08202ece5de39U, 0x1716ee19f7810710U, 0xf0f602122c7fe90fU, 0xe40b4a1300bc22edU,
  0x2e139cdcdbcaf275U, 0x3ef32f1ce48107d4U, 0x2f09e87b6248f202U, 0xb7d77fe25af3fa0cU,
  0x161b26243b212a9aU, 0xf3de15f20a7f0b0dU, 0x63b0000577bU, 0xfffffd8b00001d92U,
  0x1b77000016e8U, 0x245d00004dffU, 0x48dffffff9a1U, 0x94300001d39U,
  0xa3f4000029b1U, 0xfffff39affffff2dU, 0x4243000027a4U, 0xfffffe5e00000a4cU,
  0x40a1fffffd1cU, 0x12aa000017afU, 0x17320000238eU, 0x130400001686U,
  0xffffff8a0000002eU, 0x31c600001853U, 0x9620000390aU, 0xfffffe210000218fU,
  0x20e700004c97U, 0x191600000229U, 0x320b0000052eU, 0x156200004a13U,
  0x33e1000013e8U, 0x25f6000051c1U, 0x124e000013c4U, 0xfffffbab000000dbU,
  0x221e00004d9bU, 0x43e000002967U, 0x213affffff02U, 0x107700000db4U,
  0x1827000037eaU, 0x34d0000009b3U, 0x149000001c60U, 0xfffffcb00000200aU,
  0x2a0b0000651dU, 0xfffff84a000036f9U, 0x1014fffff927U, 0x113f0000052eU,
  0x40b400006e56U, 0xfffff618000052ceU, 0xffffe64700001d47U, 0x35cfffff771U,
  0x1c48000015ddU, 0x1db8000024e2U, 0x1c530000247cU, 0x17a1000028f1U,
  0x726000003bc4U, 0x38c1ffffca4eU, 0xccc11bf16ceb06eeU, 0x38fcf802f563f911U,
  0xde21005303d80e05U, 0x2f170a132e290f02U, 0xe6c53106f20d1df7U, 0xfa1bc3aa131c0913U,
  0x4f50732f7f8f1f4U, 0x1b7f011be11adbfcU, 0xfdfe2244cd0ef6efU, 0x3f2081110242e252U,
  0xeee21c26f27f0f01U, 0x8fd12ff50f1f821U, 0x81f3fc3209f70ed0U, 0x6604f7effb810e25U,
  0x1a7f9f4bf0ece312U, 0x11cd231aeb97dfc1U, 0x81b77fe800f11178U, 0xd37f812b0fe1ee07U,
  0x3b20c127053335b2U, 0xea04237f57a12b24U, 0x30eee026009dda29U, 0x40e3c5e2fc63d1d1U,
  0xda3b2df407ef43c2U, 0x8115df8146f234e5U, 0x1225160ab4e8fa00U, 0xbf6f3ff3d0301fdU,
  0xde16150b11e413f4U, 0xb42f03f80a07deffU, 0xece2070cea081429U, 0x115df1308ef0408U,
  0xafc0806fa05ff07U, 0xee04f30cfd0630f9U, 0xf127f893d021eee1U, 0xa0af60910f3ec81U,
  0x251716d7fcdb16f3U, 0xcefe030ff516eee8U, 0xd8f8eead26ee35d7U, 0x3cf8e6e2e9d55e19U,
  0xfe3813df3a9e77fU, 0x19cd2125fb81ceddU, 0x2fc7f94004cbb882U, 0xdff6ca22fd0256eeU,
  0xf0da0b2c13fc317fU, 0x7f15acdc7f900b22U, 0x34ec7fd97daaddc2U, 0x2f7fbbdb0720c7d7U,
  0x309c1b7f0008207fU, 0xc21b665e279bdbddU, 0x197f81d37f7f7f7fU, 0x7f7f7f968111817fU,
  0x7fbf167f81c781f3U, 0x7f817f7f81c97f7fU, 0x705fd1817f8281f4U, 0x7f968a7f7f7f8181U,
  0x817f7f8181817ff2U, 0xbcbfe79329dc817fU, 0x7f81957f7fb77f7fU, 0x7fb37d8181817fd2U,
  0x9be581da7f4f7fd8U, 0x778181eb81ea8681U, 0x2ee9477f05d93ceaU, 0xf9f1e1e6faf11a07U,
  0x8af44b272881eca0U, 0x848230b477cd4dcU, 0x10990837fd7fd079U, 0xd5f3d0e701ea1a25U,
  0xf2b6fdfb27f51352U, 0xdd027f04a77f171cU, 0x1869ef0d61b5e48eU, 0x3d5f7e12e09c8edU,
  0xd57f22a6192c08d3U, 0xf212191f77fea20U, 0x212a0dfec4ebd7fbU, 0x1f8de1a34f10affU,
  0xe6f11ef4180c0128U, 0xb530faf80607e702U, 0x10b3dc1ee7e747d9U, 0xfef6b50e13db080bU,
  0x7e70006f70d09f7U, 0x1102f7fc22d42d01U, 0xf5e70cc8cd16f5f9U, 0xf34f60f11ffdb85U,
  0xdea1a0d14dc1418U, 0xe0f92a14fc151907U, 0x3fe64dd619e5f6e4U, 0xeeeffa7ff537f908U,
  0x8fd44de619bed402U, 0xfd352f0e4663cfcfU, 0xfd81e5e7e9f04581U, 0xd0efd4e521f1f32bU,
  0x361aaff619431ac4U, 0xf5ca14c94e1a15U, 0x1dbbe4f6cd81e712U, 0x4c615d2fae2d226U,
  0x7f9e3e080d14232fU, 0x512deb74eee17f0eU, 0xcd23d0e1ce5ddf8U, 0xf1f4ce0c0d01fc06U,
  0x2ed07eb160ef8d8U, 0x1a21fa0030fe11fcU, 0x8cde5fae9142e14U, 0x4f2e4b40815f80cU,
  0xfaed08f8fbfcf1ffU, 0xe40736e9e217ca02U, 0xec32062dcb26fef6U, 0x19f90c0b17ebc61bU,
  0xf92635f0f3591ee3U, 0xcdf9eb0eee050b69U, 0xffffde0000002479U, 0x1011400000d43U,
  0xffffef99fffff7f8U, 0xc08ffffda1aU, 0x2fbfffff645U, 0xfffff9b30000092bU,
  0xffffe68b000005c9U, 0xffffe643000014ffU, 0x4535fffff792U, 0x7a90000604bU,
  0xfffffaf3000002f9U, 0xffffffb800000272U, 0xd1000042f7U, 0xfffff309fffffcfbU,
  0xffffe35cffffe759U, 0xffffdcbf00001eb1U, 0xfffff176000004f7U, 0x4e3200000254U,
  0xfffff35e000005b8U, 0x1870000579dU, 0x5e6fffffe64U, 0xffffe2f0ffffdac7U,
  0x10384ffffdf5cU, 0x3ac4000001c2U, 0xffffc91800008cb5U, 0x21feffffffa6U,
  0xfffffddc00001dabU, 0x5cdffffeee7U, 0x83affffc76dU, 0xffffe47f00000488U,
  0xfffff86afffffa1dU, 0xfffffd03ffffd29fU, 0x43d600000823U, 0x5de500007007U,
  0x254ffffd005U, 0xfffffcdbffffedfaU, 0x27370000d38bU, 0x27e000002baU,
  0x847600004998U, 0xffffdbd8fffffe13U, 0xffffe8b1fffffb26U, 0xfffff1690000026fU,
  0x3e900000335U, 0xfffff8ac000007fbU, 0xfffff115000007afU, 0xfffffcb5fffffefcU,
  0x276ffffff86U, 0xd45100000080U, 0xf2f8422b12f615f4U, 0x28271104f2030226U,
  0xd31dc16af5e9dff8U, 0x3f3cff0992efe5ecU, 0x8fdebf0f5150676U, 0x2305f3fde61c02e7U,
  0xecfeeed6f70c1ce3U, 0xf2f90ec6e4003435U, 0xfaf1130e1e450cfeU, 0xfdf396fe0818fdb1U,
  0x1a13fe2ad8dbee3bU, 0x7ffc1d1ce7170b0eU, 0xc7edd7e63326963fU, 0xc8e1bf111207c2deU,
  0x1ada88e31e1ff7acU, 0x22f85deb23c6be7fU, 0xd55fdbe008d10c12U, 0x23022e8e13bbd03U,
  0xe22f9d34d1211113U, 0xe12bcd36aff81806U, 0xf7de2ff72e28b307U, 0xec21562f3de212adU,
  0x4c0f42cf08a7fe2cU, 0xf41ef3e311fdf0e1U, 0x20f2fb10ef0a1107U, 0x102b11072b00e242U,
  0xd303d2e9eff1f8f8U, 0xc14a10f90be807feU, 0x2c97f1235ebc511U, 0x1cbecfd41cfbeb0fU,
  0xd7fa0e1de9db1914U, 0x4a2012f424ebf8fdU, 0x21f4ff01b30ec0f5U, 0xbeb39011ef8f6feU,
  0xfbfb05fc204c12U, 0x3a04eee0c01f0505U, 0xdbebf51235d7efecU, 0x627f906080021efU,
  0x19d6e0081b0edd32U, 0xf13ed70ef2f30003U, 0xe6ecfd0c23d4f203U, 0x20208ee22b70bU,
  0xdae7e5a012ee2581U, 0x191bf9f636f0020fU, 0x18fa153800e0baedU, 0xe316c5c3d4e30ecdU,
  0xf82731182c25edffU, 0xe7edfad9f5f8e613U, 0x9d7eae8e114e6f7U, 0xfb083706f2e5e0e9U,
  0xf82812f9fb07f834U, 0xf8fcf7fe1008f1fcU, 0xc16ed17fff704e4U, 0x5f6f724e5b3fa06U,
  0x7fdeeee043d01U, 0x5fbf70f1613d204U, 0xffe507e8fd1ba11cU, 0xe2d2ef71ee50bf0U,
  0xdf1ea17e37f07f2U, 0xddff12e108040935U, 0x6ffffb09f7fb05edU, 0x282421e2ece8ff36U,
  0xebf211c1f0ec06f6U, 0x2e2c08433f0a0c10U, 0xf7d8dcca050917c7U, 0x17070641fef0e5dcU,
  0xfcfdf7e405f50f05U, 0xd6cf1ec7fff4d6f7U, 0x1713190beee6160fU, 0x6a1e15ee08eff422U,
  0xe22300fd170bdb01U, 0x9cfde3ed8126defcU, 0x600ec02c1f8fbedU, 0xf512cf160ef827f8U,
  0x2bda0c092620baf6U, 0x605fb1bfef9ff6eU, 0xe2df3170de609e5U, 0x8128ee0ef3cbd3fdU,
  0xcf04eb0408112608U, 0x7122619f7f1f019U, 0xf707f4dfe01b5134U, 0xf02b18eef6210309U,
  0xf54539f6d31efcf5U, 0x160010e404ceef14U, 0xddfdf90cef180910U, 0x151cb5f0f6f3f407U,
  0x11e4f70cfbf0ee03U, 0xfef60905f6f500e0U, 0x13df070ef90700f2U, 0x3cff010d17f4fd0aU,
  0xc9f909e8eced0e02U, 0xf0f90bfafffeec1fU, 0x181106fadc002ee7U, 0xe6060c2f00ecfbffU,
  0xffff7feaff25e412U, 0xfcfff4e10400e2daU, 0x22020b30f4d12ed2U, 0xde2f30fc2cd74e11U,
  0xae036140eb613f1U, 0x708a943e80aede4U, 0x1fe204f20ef21a23U, 0xf543f2d981020a11U,
  0x3023a9738072ab0U, 0x140dc208c7dfe2faU, 0x532502fbd61e20f9U, 0xcc119bec161b17e9U,
  0xe6251ec60011efe6U, 0x6f6ea3efade300aU, 0x19ee0c1ae0e3cb08U, 0x2bfceeb10ce9ed29U,
  0xf1fe1beded131efbU, 0x1d6cfc8cc14110aU, 0x11be5a01233726e6U, 0x812de217a9f71f09U,
  0x10f00dfc12ec07e8U, 0x14ed0a070edd0cdfU, 0x1c21f31814237910U, 0x81ef8360aeff3f8U,
  0xf0f3230fe4110aebU, 0xf80d061b02f80cc3U, 0xceea9c562cf13323U, 0xaf0608ea131e39f7U,
  0xdef069842043ffbU, 0x1ef60cff59bcdcb6U, 0xe8e7d465f80ef701U, 0xedeefe1e93146e5U,
  0x106ebfdfbd9f9faU, 0x1def0f02e4cd080aU, 0x3036fa0bfc2d3228U, 0xff219fef5aee9c4U,
  0xf060cb45ccaae319U, 0x81f5333efc02f8efU, 0x20490a0907e62c2bU, 0xf4290ff0fde7f703U,
  0xfd1b1b0dfa9afcf7U, 0xc051107e7f0e5d8U, 0x2df213fb1b0c0eeeU, 0x13d31b91421d01U,
  0x12e8111fca0e1981U, 0xfbe6e30af2fceef1U, 0x1c19011c09ec34d0U, 0x11d5cfef1517ebc4U,
  0xf7fdff07315a02ffU, 0x22e9050cf7e91906U, 0xfe2126ecfc1805e4U, 0xb3dd0afafff1057fU,
  0xe7fc2a3c4d0c0d1bU, 0xe81e03b1cb09fe02U, 0xf5220007f602fefaU, 0xfa0d1dfeef00ebccU,
  0x10df6fefcf3120dU, 0xeffced160012e73cU, 0xe5e70d1103e1220bU, 0xbe0fec0f0fc40612U,
  0xe5edf1dc2c340deaU, 0x160bf8082b00311cU, 0xaf7f0121ee7fd21U, 0x109e808ea0703f9U,
  0xf905e1f204d4b916U, 0x8f8ddee16fb1103U, 0x141201171e0bfbf9U, 0x81ee1419371306f6U,
  0xf13f1f505fef623U, 0x603190b132717f9U, 0xd7040ffec9ede7f7U, 0x11b05f813fd28f3U,
  0x180c240d17ecf325U, 0xf2f01cf20314f3f9U, 0x36ced3192813d5a0U, 0xe682f53606ff04e3U,
  0x738e8ec110be842U, 0x7f0badf1634fa8bU, 0x24151a1dc5290afbU, 0x2a557ffee5f720f6U,
  0x51bead4210233acU, 0x2c0d3a24345b1705U, 0x9ac947034bd0e7feU, 0x174c1f051e0a18b3U,
  0x35280b2e2010fc38U, 0xe61127f206292b25U, 0xed114de31418e854U, 0xff0ecc509ff4fdaU,
  0x168dfaf4f340100eU, 0xacd729191a361419U, 0x8cbaca1a0613cb10U, 0xccf04cf833fd16fcU,
  0x812d852610cbe16aU, 0x1030f5811d29d309U, 0x9c23ae245d5e92eU, 0xdc33cc21f2112b0eU,
  0xcaff09f74e2df5f8U, 0xed182b900436def4U, 0xfffff971ffffea89U, 0x84f7ffffdc68U,
  0xcd000004bcfU, 0xffffef07ffffcdd2U, 0xe790000522fU, 0x50a90000746eU,
  0x3320ffffcb09U, 0xffffbf9d00007046U, 0xdd142b263de84206U, 0x8144a72144e91913U,
  0x967fdb1be8ef5416U, 0x1629d501f3f93c0aU, 0x2818dff2d0c61f81U, 0xcc2bf8d6e86f24c0U,
  0x662c2cd6542c4fe5U, 0x81edc4101dc1442dU, 0x2ef745e86326fe0dU, 0xd58103090bfaef1aU,
  0xcd51233ca77b4f2U, 0xd698dcdc88ad5e81U, 0xc8ce2924f31e0affU, 0xd4fae87f022de6e1U,
  0x701b4f8d37f2828U, 0xe931101511a0faa5U, 0x562067f427620a06U, 0xaf8111f7acf11a13U,
  0x2d3e8e71a6dad14U, 0xec81ebbeea2d0f2dU, 0x2feae481e2f9c4b4U, 0x1c262cccb34a5d53U,
  0xb5cd103d81fafd1eU, 0xbc5de122c01e42a0U, 0xdd9ffdb2c32715d2U, 0xf6c7ffb290a9fc6U,
  0xf709e10416c6c0d1U, 0x267f2010ecfc0a2cU, 0x7f0b36300141b5f7U, 0x72d11319de123a1dU,
  0xf75a04043ffffa0eU, 0xe3e4e7fdc5088102U, 0xc42003fe23d2a939U, 0x7540700e236a477fU,
  0xfcf02333652cdc81U, 0x1e9f16fdfe0dc630U, 0x240509a9220a0beaU, 0x61b8106b7edd8c0U,
  0x3ab932079142f60eU, 0x7f5b0ff1425ace36U, 0x42fc07fae122fb1fU, 0x7feb1421f158ecefU,
  0xe5bef718f40200c6U, 0xfe12ec811e1c300aU, 0xe2edba0ee824dd1eU, 0xd54aeee3e3ee1b81U,
  0xf2f1fa0ff8110a11U, 0xcb07eb7ff82ce8f3U, 0x144bf3e4d602f302U, 0x32c8ffe81ff1ce7U,
  0xc2b5ca07d8135aa3U, 0xfc2cde681ee29deU, 0x37e10e69af2c1e48U, 0x21003cfede1cc47fU,
  0xe7fadbe6ee12e957U, 0xe09ee0e1b8115f0U, 0xd044f93eb781e9a5U, 0x3ec7fb2406d430efU,
  0xcf1ae6fe7f01de9fU, 0xbd27b01a4bb1fae6U, 0x4704374ef87fd34fU, 0x56c714f7d933def7U,
  0xde19dcfce3f1c1f4U, 0x735757f31c7f18f2U, 0xb99011813fda56d8U, 0x3e2f25f44317c4baU,
  0xd317e6f37f0df128U, 0x64fdf615f5263d81U, 0xe6810b4004fc0820U, 0x10d02fd23d935daU,
  0xf1f09c10220bf87fU, 0x1ff923420a901e03U, 0x8e2183f1f810629U, 0xfdc0210f90eebceU,
  0xd20d24d7ef7f11fdU, 0xff17010c1bdb10f9U, 0xee136606010a3781U, 0xce0203f531732522U,
  0x2081f8121d0feff5U, 0xf4f8e5fbe7f62608U, 0x685f53175d1d271aU, 0xd08136fa02e2aeafU,
  0x657ffad1f1d8ed0cU, 0x22133bfedff748cfU, 0x218bd900d5150cfdU, 0x1687fd92667e812aU,
  0xb0bc3c3bea31d686U, 0xf00c0b81af1d35d0U, 0xd7ffe800f2e21502U, 0x3e096222331bf27fU,
  0x4400c82b81f1b4e7U, 0x43d26c3205dbd1f2U, 0xa10deab05ec1efecU, 0xe119200adde32881U,
  0xbdcf57e47f8415beU, 0xf041f0c474261824U, 0xd9caefff811303f0U, 0x255e250e0c0816a9U,
  0xf6e32ff1611f1509U, 0x819ac408e9c8ef26U, 0x3afa284c98173807U, 0x402d5070ff0087fU,
  0x81c2031ae91fce16U, 0x100c0cf71af69d01U, 0x62c3ff1d18ed1b14U, 0xe01a596402d27fa8U,
  0xf42e11f8bae94612U, 0xde9681173dd1e7cbU, 0xd0fded3025180deeU, 0xecdf7fe8ddf00ffaU,
  0x9f1e539e9466781U, 0x232d0bf0b260febeU, 0xef52131ae09110fU, 0x2a4fe5d37f26ee19U,
  0x7f302cf4641deddeU, 0x2620331bea0e2707U, 0x1cf90e0fa7fa7f17U, 0x301aab025becee6fU,
  0x23f0ad7a92e4c20U, 0xdcf81f6d0251811U, 0xdf1e7ff1f753f329U, 0x316fd0af7e312eeU,
  0x7f79d4a7d1a9fbc1U, 0xe5fa620e1fb331ccU, 0xf9baee82de1609beU, 0x1f4b81e8b107f9b7U,
  0x819ef315a0ebd6fcU, 0xbf2405330de366d5U, 0x81f3fc3f201af7e9U, 0x1a02e1fad50a9f0dU,
  0xca282e16b42c0881U, 0xf9d60afdec2a179cU, 0x19dd06f11a58f308U, 0xfc811debd2010de8U,
  0xbbb0ae3f26cceb2bU, 0x2e8b21d2db819710U, 0xbb23b7bb579dd705U, 0xc07f6eafd55ce4cfU,
  0x2200810658c61edcU, 0xf7ee0b5de015fa14U, 0x6b7f0cc0eacd1620U, 0xf60642070ee538faU,
  0x4213fd36c2dddc12U, 0xf34c81113be9daf3U, 0x81a5b032e0c5311eU, 0x3e33696ceef24927U,
  0xca01e7b2b8de81c7U, 0xdd2bcefcfacd06e0U, 0x7881f6f8713229f2U, 0xf4ff0ce3d2e71cU,
  0x71563ee919db14b8U, 0x140e5181d5f829faU, 0x83818826c7dcd939U, 0xf3551a37e300e4e2U,
  0xc6ecf7b6d1fdf4d8U, 0x9d312dfc1ca8127fU, 0x605472d4cf4a181U, 0x2c65040b2ac0d9f2U,
  0x1b1e187fc31b0effU, 0xde1800efef0b002cU, 0x2322eb08a326d201U, 0x16e07f0dd5f6e6d8U,
  0xeae41d1c1d1c21f0U, 0xf581deedcfedf4edU, 0xce1a9cff8f17d5d5U, 0x1a8f81e991c7ebe5U,
  0x32f2fbd6b616f5f9U, 0x2611812e9bf8e094U, 0x16d4fcb118001b7fU, 0xc14729d40e7be4e5U,
  0x5fdd0710d402f0e5U, 0x815441ede7cda88dU, 0x1dc82eb8f2130e00U, 0x56ebb40be848c281U,
  0xd5e4d6d70622ce67U, 0x24f9d5040281eafaU, 0xe3deeab62b0c6737U, 0x817ccbaa2f302a6cU,
  0xb63ec6abdb816a4bU, 0x90e3ead4c82d5858U, 0xc27f23a9ca2adddcU, 0xfbd2e93694100b55U,
  0xe515f4e6c809fb21U, 0x7f23d321413b2fe0U, 0x81cff42a051a090bU, 0xf90eebeef209d915U,
  0x17d231ab81610f21U, 0xfe77dc9c75f8a30U, 0xe301815103a43e9dU, 0x11f40c00096dc7eaU,
  0x23f1d9eea4044fb3U, 0x2a84ef781cee13aU, 0x1fe60000080aU, 0x5c5000003d67U,
  0xffffebb3000046a9U, 0x17e7fffff9c6U, 0xfffff1f900007730U, 0x10d9000029e1U,
  0x2be500003277U, 0x60e00009f38U, 0x150000000b06U, 0x17eb000034c9U,
  0x139ffffff4dU, 0xfffffb21000030b5U, 0xfffffff50000119fU, 0x1e7300003782U,
  0xe797000019f9U, 0x4f3b0000c46cU, 0xfffffcaf00003d39U, 0xbed00002455U,
  0x11b000000939U, 0xfffffceb00005e3dU, 0x21f600003f4aU, 0xffffe9cb0000ac87U,
  0x1ee500005bfeU, 0x5de600001cd7U, 0x247d00010d16U, 0x229cfffffb87U,
  0xfffffd9dfffff0b9U, 0x1bd0fffff595U, 0x4839fffffdbbU, 0x28da00001460U,
  0x38e30000194dU, 0x157400002b3bU, 0x2d01000023e4U, 0xffffe22300000fb5U,
  0xfffff38f00002974U, 0x21a300001535U, 0x164700004e13U, 0xffffeaeaffffef49U,
  0xf300001eb4U, 0xfffffbf9000008e9U, 0x325400004930U, 0x5011000019cbU,
  0x9700000cf4U, 0xff1f00003880U, 0x3a4d00003c51U, 0xfffffe6a00001971U,
  0x2f4500001504U, 0x4bca00001b8bU, 0xc55750157ff3b9cbU, 0x723fde1fdf0edf2U,
  0xc7f8115191ad9f8U, 0x17248181e13010abU, 0xfa1ff5e6ea391708U, 0x2d25c1184c931df0U,
  0x3510f70412e837edU, 0x270902f5eabccca5U, 0x7f140ffa0e4ce546U, 0xfc7f18f600191a15U,
  0xf0b4137e14e112eeU, 0x21efe603d3f0df02U, 0x8b2d7fd5694a817fU, 0x12f29a7f7fed0644U,
  0x4651b97f907f7f0cU, 0xebc42cc7dcbd8c81U, 0x43c9f1d8a88136a6U, 0xce9492ca4e7f7f00U,
  0x5330de44522d81f1U, 0x42c0d7d090a828d0U, 0x58ef1db12119c44bU, 0x37dd42020f0d7f75U,
  0x7f8e54fae97f7f40U, 0x6dd881aa81049e88U, 0xf448ec0eaf1ef2acU, 0xfbf7fdec13e3dc4eU,
  0x1e9cebfe06f4f7U, 0x7f12f6ec4076c91U, 0xa1222fae10b1200U, 0x1026ef1242890b17U,
  0x1900fffa03f00cf2U, 0x120260237d205bdU, 0x29fcfe0b19e4d9fcU, 0x2abfff604fbeb0bU,
  0xebd70f9101ede7e8U, 0x5f1e21edee618cbU, 0x7f1560d0dd48b8baU, 0x234e8a1b8affeccfU,
  0x342fcc3a5ceec6fdU, 0x96753ceae97ff6a4U, 0x60e41fdac7ab5781U, 0x41ea7fcf2dfbe6cbU,
  0x211cc810fd14650fU, 0x7fdbdf7fa9b9787fU, 0x5d7f267f01f1db49U, 0x9df130e0cfa66d6U,
  0x1dce21016cac7fd1U, 0x4e8bf7ff8df814fU, 0x2562547f90387b43U, 0x7f8181bdd97f7f81U,
  0x7f855b67ce85c67fU, 0x818169837fd2a68dU, 0x7f93817f7f697facU, 0x8181de81816fa0c0U,
  0x817f7f7f2a578e7fU, 0x9e81b3117f818165U, 0xad9881847f817f81U, 0x7fb17f817f7fb481U,
  0x2f5b7f3b81d21c7fU, 0x817f24c0017f0f7fU, 0xe52ea5c725d3f2c6U, 0xd0f64035de2dd12U,
  0x7d8ad027ffa40fdU, 0xbf10f1bae9b86cbcU, 0x29ba2ce3ee0629bbU, 0x2e11c6d71ed9fa7fU,
  0x1506b5e106f67b09U, 0xcd5e7fdb19fa055cU, 0xb1ed76b1f7290cd5U, 0xd74c131af0edccffU,
  0x1841ecd40e3bd5b5U, 0xffe45ed814d23e0dU, 0x183fd30beef900b8U, 0xfee81213fadae43aU,
  0xf701ccc7040740f8U, 0x16182358b924d1edU, 0x1fe23fbd0f6f80dU, 0x280b220365bcf8ecU,
  0xe0bff16ea0be5f0U, 0xf7edff120bee1cbcU, 0x1c1914dd0ed2d301U, 0xf3b00713041beb0eU,
  0xd50f07810f11f9f5U, 0xfbec390dd5e4cfc4U, 0x1b25e9b8de811c7bU, 0x26f56eb193eae3bfU,
  0xfed9d35f82f8d403U, 0xf8f8eadf12cb7f8cU, 0x3a7fe7e9031813c4U, 0xd5c04cdadb44f20bU,
  0x2903e5d28181fadfU, 0xd00aedfa2405fbc1U, 0xbbe96972e93c22ccU, 0x143308610504c80cU,
  0x287f090503cca00bU, 0x1ff64e2b90ed26c3U, 0x81ba0e1ced0bc5U, 0xfe15ea0f05edf7f5U,
  0x30dc9cb1205eef9U, 0xdfcd9d30013a312U, 0xd62a06dbe4f9ee27U, 0x14154103dcd0fe16U,
  0xfdfe0415f70bfef7U, 0xf3560af8da00f8c5U, 0x13fc07fd1bfcff22U, 0xf24c032310fe0ef0U,
  0xdc2a0249f1f9f401U, 0xf2f002fdd1ef2438U, 0xf2c700005a05U, 0xfffffcbbfffffe19U,
  0xffffe91f00003deaU, 0x123fffffffaU, 0x34a8000015efU, 0x1dfffffa07U,
  0x11a300000275U, 0xffffda65000012efU, 0xfffffa1affffee8dU, 0x3c37fffffdf9U,
  0x3daaffffd106U, 0x27aefffff4e8U, 0x110000569dU, 0x476bffffed9fU,
  0xffffbb16000037f7U, 0x5fae000009d0U, 0xffffd009000063bdU, 0x24d00000a8cU,
  0xfffffc78fffffe73U, 0xffffd96c00001308U, 0xfffffef1ffffee3bU, 0x100ffffe0caU,
  0xfffff4d7000076e7U, 0xfffff8e300002d80U, 0xffffff93ffffc8e5U, 0x152ffffffb2U,
  0x4055fffff5ceU, 0x37b1fffff240U, 0xffffffcd00005029U, 0xfffffe4600009795U,
  0xfffffbafffffdcbbU, 0xfffffef9000006d5U, 0x38b5fffff247U, 0xffffea41fffffc18U,
  0x82cfffff70fU, 0xfffff209000000b6U, 0xfffffe2a000003e0U, 0xffffe929fffff3c1U,
  0xfffff51a0000010eU, 0xffffddfd0000ca3aU, 0xffffd269ffffecabU, 0x1c90000004cU,
  0xffffcbd50001074cU, 0xffff9121ffffdca8U, 0x2174ffffe81dU, 0x8cd6fffff310U,
  0xfffff5a7fffffbb4U, 0xfffffd1cfffff6e5U, 0x4d1f10be2fdf9ebU, 0xaf3f20901010912U,
  0x7ffe316fcfbfbffU, 0xfd2ae50e7f061608U, 0xfced09fb020906feU, 0xd0f11fe19fe12f3U,
  0x47efeb0e05f70418U, 0xe50117f9e5dc0c02U, 0xf01814fc24f2d1d8U, 0x6fe16ecf0ffe3faU,
  0xb203f1f40c0dde02U, 0xefdfe329fa09f706U, 0x3132e47fb6a7be1eU, 0x3dcbed0ee3d8c5eeU,
  0xbbeb0a232634fecaU, 0x20b5e10ed4f609f8U, 0x191cfa000b041ee1U, 0x15015bd0ecc434e6U,
  0x254820e1cefdaa12U, 0xd306ff03d6f0d7d3U, 0xfef3e0e7cff65abcU, 0xfd29c138f9ee9e4eU,
  0x10ed13c1fb0fd913U, 0x6003002105f3da14U, 0x4525553502cb3cfdU, 0x7170ff3fde481f5U,
  0xf48050138c7ff02U, 0xcc34012fcaee1e35U, 0x17f4cb980ddf1522U, 0x23fae617fd12bf06U,
  0x21e9fe5ef9ef2cf5U, 0xeb19fb130e241121U, 0xe0f0ebf2e7f00204U, 0xf11b343333fdafd1U,
  0x1cfb22ecff0ef013U, 0xfee5d4fff6050efeU, 0xe719e22e09610853U, 0x591c1d07db10c6eaU,
  0x173a1157071cfc04U, 0x47f81926f4f3df1cU, 0x2ff50004fc2821a8U, 0x92ea12260c5cd5baU,
  0x40197eb3de4e3e0U, 0xcfec6a2123275281U, 0xc1edfc2ddaf04016U, 0x3b25f5f0e82dda37U,
  0x3d0d0e0fe720c7e1U, 0xca434e282c240f05U, 0xebfb0c7ff416eb21U, 0x36f100dae5e9e8ceU,
  0xfb1419e03ee1b807U, 0xdb2bec14c914effcU, 0xfe0a173407f90c46U, 0xf404c6fdd9fb09e1U,
  0xdc0ae7eb020cfc29U, 0xb2d36fd0bdaee09U, 0x2e15ffebf9ee2e1cU, 0xe035240ef7e4bb22U,
  0x342c05e3f406d9fcU, 0xdf1a0811e00c0ed0U, 0xd726fc0b16f8eaf2U, 0x7020bfe12f2dff5U,
  0x4fdc1f0afe0affe7U, 0x1514170e9709eb0eU, 0x8f31c2fd108fef5U, 0xf50902e7de1feff1U,
  0xc6f7dffefe1befecU, 0x1ef3fb3e11dd1af8U, 0x32067f0c4ef340f1U, 0xfd1516d443f30cfaU,
  0x5e0525ff1414eaf1U, 0x6d61102f6061e01U, 0x21e01f2ddf6b10aU, 0x2faf7f9be061511U,
  0xe042bd70404e801U, 0x4280fe9e901eefaU, 0xae37ee060f2b152cU, 0x2de8e4fdc9fd52dfU,
  0xf5f5bbea69e115eaU, 0xb01c45f70edad303U, 0x117f30ec05f0ee23U, 0xf81d14a721e20ce0U,
  0x144805deec18191cU, 0xece406f3d23117f7U, 0xea303e6921477f06U, 0xd152fd90816d1ecU,
  0xb29e4122b03e301U, 0x19f1140308f712U, 0x4cd7fe09fad8e324U, 0xec12f3fd1f0d22cbU,
  0x30cec6151b0eedd1U, 0xcf2d40b0df7222aU, 0x5202e6f5bbd146c4U, 0xe7353e2503f802dbU,
  0xedfe48e407fae6c3U, 0x122b0cd4dee022daU, 0xd93aeb8f2343ec02U, 0x221fb001654791aU,
  0x5c8b23b3ff2500a7U, 0x2d04071cd53cbdfcU, 0x2900f4f2ff12ef3fU, 0xf240e8bbe64fe3e0U,
  0x1df1d9b7383a0799U, 0xe3d7d525e281dafdU, 0xfec00e2ff7dc6bf8U, 0x6ee03d204254426U,
  0x39521931fefaf79dU, 0x63df7084443cf0cU, 0xe0de664717f0a9fcU, 0x9d4a13f35f48d812U,
  0xfd23f5c908f3e5f6U, 0xf20e09fd00fefcfaU, 0x2be1fd0c10a9fb1bU, 0xd0cee2fb260fbd1dU,
  0xadec1f47d106281eU, 0x7fe3c32617d665f4U, 0xc8c9310410ee13a1U, 0x81aec1920e90117U,
  0x327d107210fe40aU, 0xde17fec727dcec00U, 0xe246f6f5e6ecdeddU, 0x2fcec25221b1726U,
  0x230f33e6f6f10dd8U, 0xe13edd1d8108ebf7U, 0xff05200efd0911f9U, 0xf1e02fdbd29dcedU,
  0xc708edd4eff81902U, 0xf9f5ff25d8ef120aU, 0xfe02fe0c01e75bd2U, 0x2ea41f3300ff7dcU,
  0x7003fc0f1b05efe6U, 0xd234e21b0e14f8f6U, 0xebfcd31c130401afU, 0xf0e6152023f804c7U,
  0x12fc1cfcd9c9f417U, 0x13db1ff4e842f158U, 0x10140203fefd0cf4U, 0xf4f0e44e815fcd9U,
  0xe019be193c042835U, 0x13faea0ddac0fda7U, 0x39f4261b2404f9e9U, 0x398b74d606120bdeU,
  0xfa3e237fbbc3f2d8U, 0xf1f541ebc8e92e03U, 0xcdf62a5701c2fbecU, 0xe224e820103a1adfU,
  0x48c7ff0bed06ecccU, 0x2d427ec6fec1ef2U, 0xb22d7e81c0c26f0U, 0x2f2ddef6e004f2f3U,
  0xd4e706fcfe0afdffU, 0x3ffcec082df104dcU, 0x5cfc81c56af5b524U, 0xa0e0bec7f0019faU,
  0xcc26f909facc0e13U, 0x25f838c501131af2U, 0x1ae5e8ccefe045afU, 0xaec115cfe22f2dfU,
  0xb92cd925fcdf16faU, 0xbad6f6f125003151U, 0xff3a10f21202e9a5U, 0x1dee103117e052f0U,
  0x251c920450ef23dU, 0x16f625fc0e3024fdU, 0x811c00fefb07ed1aU, 0xded50f47fcc3f818U,
  0x662c9fdd3fae84bU, 0xf6e2e31b0de105eaU, 0x1de4ef2bbac71fe8U, 0xe3b2c2f2fc1617a1U,
  0x810be4430d4befb9U, 0xe5f2e6fd02d919dfU, 0x326f3e8190ef2bcU, 0x1b0714c6f2a3530dU,
  0x24a5470af80ad47eU, 0x1c3a3afc09960ff5U, 0xe420bbce60a1b16U, 0xa5dc9b450ef6ee2dU,
  0x7d7a3121b05d61aU, 0xedfd20002e1921d4U, 0xd1f706ffd3f9c8e3U, 0xf42dfd1ddcf204efU,
  0xd1cdf2fa0de906bcU, 0xb937f4eb20f611fbU, 0x5af15f3fc0f0cfdU, 0x1827daf72deacc26U,
  0x34f826fd81eb0b23U, 0xa2a06f72806ee25U, 0x1106f6f0d906ed10U, 0x501e2f7de0a0fd5U,
  0xdcd6d7ea3ff730f0U, 0x2f5f7e3491032e2U, 0x2d55ffffdd07U, 0xfffff3deffffd161U,
  0x396affffe062U, 0xffff35a500006424U, 0x3e7bfffff69bU, 0x4e8100005755U,
  0x1a5effffcaf5U, 0x203affffcd1fU, 0xbbe7ebd781005ce9U, 0x3408d61648fb04e5U,
  0xb71be2ec03d808edU, 0x8123f50521cd3a46U, 0xb5d4222e31d81dfbU, 0x21da61f209f5d27fU,
  0x1102030cbbf9e711U, 0x4c03fcfc3e5cff7fU, 0x24eddb0b3a0c57c4U, 0x1bebfe81d4fdf6faU,
  0x509c4d04fb7f3303U, 0x2384d421d1d74db6U, 0x5bc20529977fc924U, 0x43ec57ede736b1b9U,
  0xdafe1a5bdaf76811U, 0x2030e7ff1cef407fU, 0xb510c61faf05a814U, 0x404d7f0ff83d3d0fU,
  0xc02fe81f7ff5da16U, 0x901c004f42276b8U, 0x1ff2fb1081c824f2U, 0x2cffe6f0cf01d214U,
  0xbc49d949dd1b0700U, 0xf2b77ffa19f62697U, 0x1720d1250f93d551U, 0x19ec7fc7ddc73017U,
  0x10fe810010e60ff4U, 0xf100209fafcf3fcU, 0xae81155bf56fef08U, 0xc1e897292f2ecafeU,
  0x277f32fce0eaf7acU, 0xed2436eeeb6520f0U, 0x3a3f1113527f2004U, 0xc4f613f1efb4079dU,
  0xac2e9c31ff897e0U, 0xea3228facf08e181U, 0xc170f313a022afaU, 0xa3b7f13eaef2f4fU,
  0xcd900a5d2033f509U, 0xe501c9c481d0ae98U, 0xefea814e5e4e148U, 0x19213007d68117bdU,
  0x52f816f4fc3a0b3dU, 0x2a3f6af2275a8104U, 0x375ef6ce7fdf3a04U, 0x1a221d070dda0fe5U,
  0x26ded8238170dd67U, 0x488c19f0d4e514f3U, 0xea0e6702e81e0d81U, 0xf13918a8036c0a01U,
  0xc535fe0a12180f1fU, 0x2607eeeedfe881f0U, 0xe7dafbd8150cfdd6U, 0x39cd7f17ccf9f78fU,
  0xdee5e1293c0f15fcU, 0x12ef7f01fce20b31U, 0x2c2f067f43374c0eU, 0xd62d5f18ecd7fab4U,
  0x1d01000e0e11f905U, 0x11e8def381ebf1e4U, 0x8139f0da56ca61e6U, 0x535c1d4b01f534ddU,
  0x8ee301f5b5ece4deU, 0xf0abce681f8711fU, 0xffed27333a009b81U, 0x4b3008372e94daf4U,
  0xf59cf0a4f2dfcbf6U, 0x367f9615c6060a35U, 0x49c30b2a1844ea31U, 0x7fe50300103fcbaaU,
  0x881cfcef0eaf34d5U, 0x814a0efbfcac564dU, 0x37f415574f018dcU, 0xa49902e408f01efcU,
  0xd6cff706c61ae409U, 0xd71e81efff05fabeU, 0xde15e87fc0ef6034U, 0xa25ee0ef5da4261U,
  0x1ed7fdf481f24feaU, 0x2c295015dfd7ae28U, 0xe2eb06f38e19c404U, 0xd145a4f2f001fc81U,
  0xee08e30bf7d9e800U, 0x27100681f4d009e0U, 0xb7e6bebae6dd707aU, 0x917f3dbfb65308fdU,
  0xcf7feb30069e6ae3U, 0xbcb788390fe34741U, 0x81a3013ace1ceff3U, 0xc741f2eaf4fefce2U,
  0xb81daa26ec813fe5U, 0xe342f32abc0b0408U, 0xe31c10f5a4e60a0fU, 0xdf4e8dfc0b04ea81U,
  0x11eff57ff1133116U, 0xe56d061116f929cbU, 0xf70a143c1ff4af81U, 0x303dff3229a2fdfeU,
  0x1c2efa7f464d1c0dU, 0xce306d0ebbe5b99cU, 0xede78107fcb30d1bU, 0x50be215d0f9d6edU,
  0x26011f181b30340fU, 0x57ea8700810c5282U, 0x22160a313a0429f8U, 0x337f1ae1f0434cU,
  0xfaa2f9a6f3f1c4fbU, 0x10748113c6080c27U, 0xcd854c7f13c70e18U, 0xcf0ecffcb2e6e3b4U,
  0x81d2d7230ef8003aU, 0xe30ecf1117d1bdeeU, 0x3e97e3f9e51b03f1U, 0xcf30c12ecf97feeU,
  0x466dd5cde8e31205U, 0xe7f2814f2ea15d6U, 0x36e5584e16810b27U, 0xea0a0beb0d0bdfacU,
  0x7f73c8b61971319dU, 0xf6370000fb260b1bU, 0xf2d98114f3d3f715U, 0x170a0c19e1ede6ecU,
  0x51c124b7f14fd0fU, 0xd21c10f62812f3a3U, 0x32aa07e9e11a7fdaU, 0xe1d3b1e7bba5bce4U,
  0xdbbc0bb47fe123dcU, 0x452c471bc5d3d7afU, 0x390217ff2d040604U, 0xfe3381fce1fc0a1fU,
  0xe647e324810ac9e6U, 0xdd1707fc9c0e3402U, 0x7fff0df9f13ed914U, 0x28ff62fb5066bc25U,
  0x1fc8f7f681ec470cU, 0x2e515229f8d68f51U, 0x2000714047f29e5U, 0xe061f71de5f7e2e1U,
  0xc5dac79ef5f5617fU, 0xb66254a9a444fef1U, 0x7f491bddf1bf0f2dU, 0x1bf24b1000d064d0U,
  0x19fbb40509fbf407U, 0x2c1e008108b019d9U, 0x7f2611160a91f613U, 0xbfa1121ff19edddU,
  0x81acdf33062b19d8U, 0xfc24dd08e517ab08U, 0x5aacf70f7e37110fU, 0xa81981142ec427b2U,
  0xf40afe03ffe0fefeU, 0x7cb7ff901f52367U, 0x41f5f60012ffe4f8U, 0xa00faf381eee614U,
  0x554213d87ffd1707U, 0xf9eff8ed18eb2ffcU, 0x18c2da409837fe14U, 0x36087ffec7f4d704U,
  0xb9100dbdd4c9b3efU, 0xcf311b074028147fU, 0x980dda16c2562dfeU, 0xdc4f681e81bc22acU,
  0x3bef814d22822ee1U, 0xf800ef1f0749d208U, 0x16fc920b15f2fe7fU, 0x16050f7802a4eef9U,
  0x8c2df3dfbe905ce1U, 0x583f4b1081cc2a3eU, 0x814ae913c8690ec1U, 0xec38192fcbf851cdU,
  0xfbd1dcbc812778b4U, 0xf19e0af50da2feb2U, 0x127fcae5ffde1cf5U, 0xf9621f0cf4eddfedU,
  0xf245d70383fae3f2U, 0xe3160f0081f310ffU, 0x2d2970cfd3dde5eU, 0x11583f05b3812599U,
  0x3ecf617ced7e117U, 0xce0ff07fc52d0fdbU, 0x58cf0c3cd01bddf5U, 0x81126ef0efe9ac42U,
  0xadedfe2de2e2fbd3U, 0x707ffe581044c21U, 0x4128107112919edU, 0x1117f10be8f3e500U,
  0xe81e43c4f57fd81bU, 0xf81501e2fdc42bf0U, 0xf9f0f911def60918U, 0xf02dfb7fc80deddaU,
  0xf2d6f8c030fc627fU, 0xd15a29d9c647e7f4U, 0xdd0fffff5fcU, 0x758000022edU,
  0xfffff2f4fffff164U, 0x95e00004a72U, 0xfffff91800000955U, 0xffffff3500002b92U,
  0x91affffda97U, 0x1aab00003ab6U, 0x183400002b93U, 0xffffeab1ffffec40U,
  0x78f2000010f6U, 0x4a96000041b4U, 0x4b90000061aU, 0xd43000012b5U,
  0xffffec0c0000095dU, 0xfffff60b00001cdbU, 0x133bffffff19U, 0x38100000024U,
  0xfaa00003706U, 0x166bfffff9b5U, 0x1520000021e5U, 0x38950000150fU,
  0xfc700000ec8U, 0x24ea000007fdU, 0xffffeb0b00000f3dU, 0x15effffe67eU,
  0xfffffad7ffffff0aU, 0xffffffd0000006b8U, 0xfffffcbb000000f7U, 0x2687fffff1f7U,
  0x5c9fffffbc7U, 0xfffff7c5fffffb41U, 0x1c71fffff27cU, 0x8d9000054ecU,
  0x3e6fffff440U, 0x8a100000663U, 0xfffffb6000000956U, 0x2e3a00000271U,
  0x3cd9fffffdd0U, 0xfffffc86000043b4U, 0x92f00002565U, 0x46bfffffd91U,
  0x26c900004318U, 0x5f900001113U, 0x1217000019d4U, 0xffffe423fffffec6U,
  0xfffff60b000002b8U, 0xfffff73bfffff83eU, 0x8bacf15c0d58cbe2U, 0x3acb08340394854eU,
  0x68009cc3c2c3e2c6U, 0xa5f3e665ca4d0a89U, 0x2181ab8537aec45bU, 0xe969942e50a5ad48U,
  0x668bd1c25cc2be16U, 0x2fb93fb5986e5b20U, 0x92616322664513f9U, 0x27c706985217945aU,
  0x6db6d5ca0e61f839U, 0x1b2638ff85ec7223U, 0x232c4fd908c921c8U, 0x3c24e81d68a6a54dU,
  0x232904d86d24e36aU, 0xcd59040766db052eU, 0xc316413a19016738U, 0xd4e71ae7b2ee10ceU,
  0xd1bf55083a69a6edU, 0xabc07fc44e3b4623U, 0x11101b51205026d5U, 0x48e0e04b32d74f93U,
  0xc6bc721f87cf51baU, 0xfffd5c49215a4c4cU, 0x7158c3d76dd02e36U, 0xa255f74a6ce55e9fU,
  0x1a75faa12728e7cfU, 0x554e41bd10614805U, 0xe87f5ebaa0b0f6bdU, 0xbdeb6fb2070eb694U,
  0xc0f47d8a9721e62U, 0x35d844ed18c552c0U, 0xb7053ca154372c63U, 0x1509f7c5262cb429U,
  0xdef8a704d0f5c122U, 0xbdceaedffeff6d51U, 0x9ab3fe3de1cf22dU, 0xfd445e3a113c0539U,
  0xa7c5ba7326c86661U, 0x1848c42f5fcab3ceU, 0x3507f5adea0ae5e1U, 0xbbdf1549f3acc3f7U,
  0xb55b1a461006c845U, 0x59f318bdca8c81afU, 0x6c02c7f7eacfef2bU, 0xbe5c5031d02faf03U,
  0xabcf3121582587c2U, 0x299dc45fb1f429cbU, 0xf624faea27f94a17U, 0xbbf9e2f83efa4841U,
  0x204cae701cac07efU, 0xdebc32d9c541f6c6U, 0x2b81fed38f1c684bU, 0x36215924a6afd3d9U,
  0x14bb2798c8d7df1eU, 0xbfe3ba0d051d8734U, 0xc2ae961ad1023bcfU, 0xbdfee9432b5d09bcU,
  0xb404504ecadbf0dU, 0xe4906d1c3d16bd9fU, 0x1d179b263e41a957U, 0x1d1c5f24c2fc8165U,
  0xe50c2c2467b23a39U, 0xa1152133acf8d18dU, 0x180edf900dbf00e2U, 0xd12319e44f28d5b1U,
  0xf627092023fd6aa0U, 0xd32db725d6c9355bU, 0xc85e065320e35cd5U, 0x460bcd12b9e64dcfU,
  0x27fb4bb86f1f1566U, 0xb84b0cf6385da846U, 0x5201b6b1657fd222U, 0x8c7b3c4da30aa9f5U,
  0x407689ab6311012bU, 0xa92f81e2cdf7abd7U, 0x5a9d27f98fdd83a3U, 0xd1a16c8af2173958U,
  0xe15ec247b5f510abU, 0xaa3f059d7dbff300U, 0xf691f74ddd7044caU, 0xf2c89ba7dfa1b746U,
  0x99dca5b5de2cfb20U, 0xdb50b6c80c786254U, 0xf3f66fc2d8e02d56U, 0x3b30b91919adfe71U,
  0x53fb243871f21933U, 0x27ed66bf352c5aa2U, 0xecee53a24649171fU, 0xa05ef7353a4ac55bU,
  0x21184be0cb81d135U, 0x9f4dfd0dc8fd8c72U, 0x573a13a01040d4c1U, 0x21ad30cd3335143dU,
  0x59902452bbf5ca58U, 0xc8eee2d341430751U, 0xd7c0203ba3d41303U, 0xb8b4e0055a25130eU,
  0x6042e8241fbc59c4U, 0x68b41bcb402f5981U, 0x42d5045ff531e058U, 0x5fefe8fa91a0604aU,
  0xabedf1c007aab913U, 0x72301c6d50ab5f30U, 0x91c31c35beadbdaU, 0x394955e10c03423aU,
  0xe23b2718bfa63325U, 0x39dcabc14fa4e12aU, 0xa3daff7f306f08feU, 0xebb6abea2ff72c25U,
  0xa89f5aefd7b10305U, 0x57a90df521f5f277U, 0xd60411c9e926fe39U, 0x309c014fad30c629U,
  0x57cebb3dc3bd0b2dU, 0xc0656f9efbeab24aU, 0xab4d58e0226002ebU, 0x60e09cbfb2b354faU,
  0xe70fadda033b1c1aU, 0xe31a005157f51646U, 0xfe6a64f7bc5630adU, 0xe25041c715fd2dU,
  0xc12f1df2cd8654dcU, 0xb79f50cb929632ffU, 0x20c508d11c7f5d55U, 0xc3fab9aacc8a74e1U,
  0xe1c711220d01fbffU, 0x2b693efcc918c5a4U, 0xc89de308e3a5b968U, 0x64136f460a23d41U,
  0xea4a41a05832e94cU, 0xbcb2d7ccc0e70426U, 0x23190d2f39fb0f39U, 0xf811e0fa2be63d33U,
  0xd213270c091acfe9U, 0xf315f4201cf4d4d9U, 0xe80d29ec251eedd7U, 0xe8e9f1ee12e72dfaU,
  0xa07e8dd144f2624U, 0xfa1c2ce5ebf7edf8U, 0xdb091e2512ed297fU, 0x27ee19dd19dd2c2bU,
  0xf510db18efeb0aceU, 0xfe5effd2d10411d4U, 0x29d6fa45ffc7401eU, 0xab2806e005ec3aacU,
  0x5a0df014a2d5d698U, 0x67d604519b58ccb0U, 0x23f9aefa0ed1b5a2U, 0x6bd2a9dfd78b1f68U,
  0x4da4fb225dd381ceU, 0x27f26c3a3c2cccddU, 0x3e24592175ce186bU, 0xa6871fd4f8eb6151U,
  0x673618d4072e6bbeU, 0x4319e560215a8f9dU, 0x284e77645361c173U, 0xcc3c4d72e108814bU,
  0xcc71e04a2eb2bb89U, 0x225ab1b0120b35acU, 0x4afae1a225e6662eU, 0xe10222d602cd4fc1U,
  0xb86c18979cc97726U, 0x22c266efafe427c6U, 0x55df8ef5f9dc1beU, 0xbe503aa3d0b22e9fU,
  0x7b5e9baf25679039U, 0xfe52c27a26abcdfcU, 0x81f3e74a38529bc1U, 0xaaabb4dd4f42d7b5U,
  0x3bfd20d81c08cacfU, 0x25b698981be5c385U, 0x990b6e5bfbe3e75fU, 0xad3e973e541f9afcU,
  0xdf3ec51373b2b6aU, 0x44eaabef5925f8cfU, 0x5ba4a9ab994af79eU, 0x1b35993bb9254be7U,
  0x698bad94df94df2dU, 0x33f26452cb4e096aU, 0xb240b95849e5da01U, 0x8fb3004b14be013cU,
  0x6f43153320a11157U, 0xb0353c1056253548U, 0xbb796fc4efd00905U, 0xb5d6a91be9cc7114U,
  0xf6d8a59b26faaff8U, 0x56fecad262ce164eU, 0xc33cffbaf7c062e4U, 0x486736019839ed05U,
  0x2a9ce090b79c31b7U, 0x66817630ed914256U, 0x12c8702fb962fec0U, 0xc3c6d60e48931b36U,
  0x32d64d77523e526dU, 0xa3118a440c445ceU, 0xc2b136d53b354d9cU, 0xf36c6f41524dd519U,
  0x394a70d475f4a3caU, 0x53305e7f0b446b10U, 0xfee26b4167d71127U, 0xef935c02533c661dU,
  0x126a680e1e42a114U, 0x1ebed74f5ee91156U, 0xa0bd8dc955158e2eU, 0x279238682b4fb621U,
  0xcb08efa469542e15U, 0x40dcca5a11af3f18U, 0xe0aa60caf41eeedaU, 0x91530a03f3f2d3a4U,
  0xbd5851de130b5f48U, 0x5742a1248eb34f8aU, 0x175afe9f9e23b4b1U, 0xd722cc6535b79310U,
  0xda4a418ea2b4fe02U, 0x190651f7819d460cU, 0x4dccbfd2066d77c7U, 0xef5525e7f0ca78f1U,
  0xea35fe47ca36e72aU, 0x9ed1b5feeaf37U, 0x193b2829d3bbf527U, 0x1c1212ba34e2ffeeU,
  0x4005fddc063ace22U, 0xedf27f36cf3019efU, 0x3ae9bc0e2414b4f8U, 0xf10d59fee7f2d3ddU,
  0x153bf255ae0120d1U, 0xdc2be2372202eab4U, 0x605fa14e274d1a11U, 0x3ac11c99ed19bd5cU,
  0x8c04fe239718b47U, 0x2cb5819db518aa52U, 0x92c6b204fb1aa44eU, 0x994b19a205a68229U,
  0xf2030cd929ca24ddU, 0x3c66c530de04600fU, 0xc74535f6fbdff8b8U, 0x710a84e3a7c383b7U,
  0xf603f2a04dd88438U, 0xcd4073d640f71958U, 0x5a1a64b4695252f3U, 0xc13456e40cb1290dU,
  0xc3c3de17d4cfdfd9U, 0x72d9071b3a99b269U, 0x9417e43d45f42f67U, 0x71bcc0e7abade2b1U,
  0xfa33723e27af8142U, 0xd4b6f06565784669U, 0x4ec8b7a60ad9c105U, 0x70725f632030a5cbU,
  0x45f67640dc511856U, 0x11f12c1453285f13U, 0xff39ab4894333546U, 0x9dc517fe27afb3f8U,
  0xa732c65bf80ddc94U, 0xe5ee010436dcab23U, 0xd6814f5686a303f7U, 0x49aba59fe011fef0U,
  0x17a430114ae7c0dcU, 0xf200a9245dcb22c4U, 0x4328f790b4d1132fU, 0x562ed4902e2bdd0eU,
  0xab2d9c0cb2174806U, 0xdf30c8c9914f3c99U, 0x236bb9479aaac223U, 0xa685815290af4b9eU,
  0x1917af53b286521dU, 0x88b7a5af458aeb55U, 0x8ab2eaf0fffe3a2fU, 0xe458823453fee8fcU,
  0x19c49face3df9caeU, 0x87979e5cdae2e0e7U, 0xedd5676ad2870da8U, 0x5e3ec1179c27fba6U,
  0xd95f534b86a28768U, 0x64df0cfe34be20bfU, 0x9102a5662e02ab38U, 0xd90aa41c434e9e37U,
  0xdf5eb25d7291e055U, 0xd847444b175001deU, 0xa81f655201225e0U, 0x1968b2bf9406029eU,
  0x58d5c244d992ab4aU, 0x5dea0a4295bffacU, 0xc365f152a28f251cU, 0x6858e73ca6e4e4f6U,
  0xf36d0859b11bc0d4U, 0x47f4c56ced5928b3U, 0x9bd19ecdbea5b9aeU, 0x8ae3535840655b63U,
  0xeccec079e00245b9U, 0xd21047764d60fdfcU, 0x32eb2c71256101cU, 0x5436e227f469b8c6U,
  0xc259274622bfd2c3U, 0x7d32f872021c4b0eU, 0xd0379db9e278aaU, 0xababb659755d33e1U,
  0xb1f45113acc281c4U, 0x20901ef8b0e89b31U, 0x67c4c3342fe915d3U, 0x20cd0b500b00df24U,
  0xe8215f329d3633deU, 0x5336af432ab8dd65U, 0xfd2ce5785e1ecd40U, 0x3144395840d64ecdU,
  0x15d10b3e01df3fb7U, 0x1b2841576bbe35eaU, 0xa5f214b506174832U, 0x3b1d66363851a640U,
  0xbddee9db3ee1582cU, 0xd402edaefb7ffeedU, 0xe6ee08afe3de8339U, 0xecfcc7d459628c98U,
  0x85a3d10c4b31a6dU, 0x69c1c092e06440fU, 0x67be4ab79f99b902U, 0x5dd04cab15276297U,
  0x8cf6ca0c641426f3U, 0xf33d9109104a6265U, 0x5f6438a53abdeb71U, 0x3998a3802a6a152U,
  0x13cff94ac1534ce1U, 0x41437fc233086eaeU, 0xfacdc4dabcd30a23U, 0xf4382f21c3204b1bU,
  0xeef109bfc722f22eU, 0xf7f61d2ffdb033b9U, 0x46c1d2c1cec0342cU, 0x4c3c2344161c0abdU,
  0xeef9c5b3cc7f3e41U, 0x31f3d7e9cfaa123aU, 0x6b30f2557afdf1bU, 0x4f3fd221bdf3e943U,
  0x1a05c8ccea5a1c3dU, 0x3454063ef2e6fdddU, 0xeecdd5cd5b691755U, 0x6e25b4d1444521e9U,
  0xdcc72dd140f6625aU, 0xfefdbaeaf5d43bebU, 0x1f19b44b386117c9U, 0x360bf6ae5bb2245aU,
  0x224229f3f8dfdb26U, 0xb01be94c7fdd3fU, 0xdec70bda4715466dU, 0x40ccfbbed805305aU,
  0xbb3aad3bd14af1c0U, 0xd1c03cdfde46d898U, 0x249609ade7474142U, 0xe4dca066a4b30161U,
  0xe43ebb5ba2e65a8U, 0xfb69f4a0f5d70b01U, 0x62176805d5c20c31U, 0xf0d06a035edb6a33U,
  0x2d6bab56a25df917U, 0xc4a06f8d7fd53ba1U, 0xb824b0596041c6d0U, 0x2eebd46e2946527bU,
  0x4b3a7644b0f9cbfcU, 0x3d0010a5516462daU, 0xefb6189922b8b519U, 0xb340e97d3f9ed75U,
  0x9869129926020f8U, 0x39c8ff277b3148aU, 0x15fae70dc384b1a9U, 0x3965cf6461ecab57U,
  0x63eec66293124eb5U, 0xe2b1f991c5abc6abU, 0xda316ec05d99a18fU, 0xbeadb2c2a22567a2U,
  0x6f8e178ce8921b1aU, 0xb407fbdc385081d7U, 0xc3e249337727d34bU, 0x76eca47fbdce04f9U,
  0x60f32a331f28c9ddU, 0x5e20d8be26219e51U, 0xb1d3f65b08d82420U, 0x15e6c90c1fe5d43bU,
  0xbbfefc1ea520247U, 0xc23c01d6711e38c8U, 0xcb9a423ccf35f53U, 0x6432f0de1b1fdbf4U,
  0x12bc5334282519caU, 0x33f66902dce5e211U, 0x19affffff7fU, 0x1a0000016aU,
  0xffffff9f00000013U, 0x9bffffffe4U, 0x76ffffff90U, 0xf9ffffffdfU,
  0xffffff2dffffff0fU, 0x20fffffff1U, 0xffffff1bffffff3eU, 0xfffffe5c000005e8U,
  0xfffffde100000146U, 0xffffffbdfffffec4U, 0x5ba0000021bU, 0xffffffdefffffde1U,
  0x15a000004ddU, 0x1f0ffffff45U, 0x1ef808c9c2673b0dU, 0xb44b1dd0a2447f6U,
  0xbb36f6df626e17d1U, 0xc7ee147fe3c36ba7U, 0xf6eb7ff217b8d149U, 0xcf2569c0aff7c277U,
  0x44610e8aa3d3cf5aU, 0xc5fbc7a1e601f31eU, 0x6de3db4e4aaa48e1U, 0x724fb3a2b2731759U,
  0xa8c2634397ddc8b3U, 0xe151afd681f1ac4fU, 0xffff8b3a00005ee6U, 0xffff7811U,
};


ai_handle g_network_weights_table[1 + 2] = {
  AI_HANDLE_PTR(AI_MAGIC_MARKER),
  AI_HANDLE_PTR(s_network_weights_array_u64),
  AI_HANDLE_PTR(AI_MAGIC_MARKER),
};

